memory_initialization_radix=2;
memory_initialization_vector=
10000100000000000000000000000000,
00000100000000000000000000000000,
00000010000000000000000000000000,
00000100000000000000000000000000,
10000100000000000000000000000000,
10001000000000000000000000000000,
10000010000000000000000000000000,
00000010000000000000000000000000,
00000100000000000000000000000000,
00000110000000000000000000000000;