0001110000001000100011001000100000000010000001100001110000001000100011000000001000000010000100000001000000010110100011101000001000000100000101101000101000100010100001000000100000010000000100101000100000011100000000101000100010000010000000100001011000010100100000100000000010001000000001000001110000100010000011001000101000001100000110000000111000011010000000101000101000100000000111101001001000010000000100001000110000100010000110001001010000010110100001100000001000000100100001100000111000011100000010101000111000010100000011100001011000010000000110101000011000011100001001001000011000010000000101001000010000100010001001101000011000001010001000000000000000101100000110101001011000000000000100001000010000001100100000100001011010000110000111000000010000010010000000100000100010000010000111001000001000101000000100101000010010011010001010100000110000110110000111001001011010100000001001100001000000110010000001001001011010011010000101000000101000010000100001000000101010011010000101001000011010000100000011100001010010101000,
0010100010000100000111000000100010000100101010000010110000001000001001100001000010011010101000100010011000000000000111100000111010010000100111000001100010000110000010001000011000001000000001000000000000000100000000000000000000000000000000000000000000000000000000000000000000000000000000000000000000000000000000000000000000000000000000000000000000000000000000000000000000000000000000000000000000000000000000000000000000000000000000000000000000000000000000000000000000000000000000000000000000000000000000000000000000000000000000000000000000000000000000000000000000000000000000000000000000000000000000000000000000000000000000000000000000000000000000000000000000000000000000000000000000000000000000000000000000000000000000000000000000000000000000000000000000000000000000000000000000000000000000000000000000000000000000000000000000000000000000000000000000000000000000000000000000000000000000000000000000000000000000000000000000000000000000000000000000000000000000000000000000000000000000000000000000000000000000000000000000000000,
0000000010000100100010101000010010000110100001000000101000000100000011000000000000000000100010001000100000001110100100000000001000000000000010001000001010001010000100100001000010001000000000101000101010000010000001000000011010000100000001000000100010001000000001000000000010000010000001001000101000001010100000101000001010000100000000101000010000000000000010001000010010000010100000100000000010000100100001100000000000001000100001001000011010000100100000101000010000000010100001000000000010000010000001100000000000001010100000101000011010000010100001100000111000000100100000101000011000000000000000101000010000000110100001000000010000001000000010100000001000000000100001001000001000001100000000100000101000000000100000100000000000000010000010000000100000000000000010100000100010000010100010001000110010000010000011000000011000000000100001001000101010000010100001100000010000000100100010000000100000000000000011001000100010001010000000100000101010000100000001101000011000001100000000000000101000001000000010000000001010000100,
0000010000000100000011000000101010000010000011000000000000000110100011101000001010000110100001100000110010010000000010100000010000000000000001101000010000000110100000100000001000000110100000100000010000000000100001100000000000000010000000000000010000000110100001101000100000000100000001001000011000001110000010001000011010010000100000101000100000000000000010101000101000001010100001100000001010000010000000100000000010000100000011000000001000000110100011101000001010000010100001100000101010000110000001100000000010000110100011000000011000000010100000100000101000000100100001001000111000000010100010001000010000010010000000101000010000000010100001001000010010000100000001001000001000000000000000100000001010001110000100101000100010000010000011100000110010001000000001001000100010000010000001100000011000000100000001000000100000000010000000101000100010001000000001001000010010010100000001101001001010000010000001000000001000001000000000101000001010000010000001100000010000000100000000001000001000000000000001100000010000000100,
1000010010000110000001100000010000000110000001100000000000000100000000100000001010001000000000100000001010010010000010001001000010001010100010000000010000000110000001100000000000001000000001000000001000000000100010100000011000001000100011101000001010001000100001100000100000001100000010000001000010000010000010101000010000001100000000001000100000000010000011101000101010001100100001001001100010010000000001100000111010000110100011000000001010000010100001100000011010001000100011000000100000000110100000101000011000000010000001100000010000000110000001100000011010001000000001000000100000000100100100000000100010001010100001101000001010001110100001000000010010001000000001000000001000000010000000101000010010000110100000101000011000000000100001001000001000000010100001100000001000000110000000100000000000000010000001001000001000000000000001101000011010010010000010101000110010001000100001101000111000000010100000100000000000000000000001000000010000000100100001000000100010000110100011100000110010000010100011001000001010010000,
0000100000001100100000100000111000001000000001000000010010000110000011100000011010001000000011001000100010000010100010001000111010010000100100100000001000010110100010001000111000000100000000000000001000001100100001101000001000000000000011001001000000000010000000100000001000000010100001100000010000000100100010000000011000001000000000001000110010000010000001001000101000000000100001100000010010000100100001100000000010000100000000000000001000000110000000100000001010000110000000000000001000001000000000100000000010000010100000101000011010001010100000101000011000000000000001000000101000000100100010100000010000000100000000100000000010000010100001000000001000001000000000100000000010001000100001000000000000001000000001101000011000000010000000100000001010000110100010000000100000000000100011001000101010000010000000100000101000000110000010000000000010000010000000000000011000000100100010000000001000001000000010000000011000010000000011100001000010001000100000100000001000000100100000100000001000000010000001000000011010000110,
0000010000000000000010100000011010000010100001100000001010000010100010001000011010000100100000100000011010000110000000000000011010000110100000100000011000000110000010001000011000000010000001000000010010000010000000001000010000000000100001000000010000000100000010000000010000000000000000101000100000000000000000000000001000000010100001100000001000000110000000101001000000000100000001000000110000000010000000000000010010000010000010100000001000000110100001000000001010000010100001100000010010001010000001000000000000001000000000001000001000000000100010000000111000000010100001000000000000001000000000000000000000000100100001000000001000001100000010100000001000001000000101000000001000001000100010101000001010000110000011001000001000001110100001000000000000001010000000101000100010000110000010000000001000000010100001000000001000000100100100001000010000001000000000000000011010001010000001000000010000000010100000100000001010000010100001000000000000000010000000000000001010000100000001000000000000000000000001100000001010000110,
1000110000000010000010001000001000000000100001100000101010000010100101001000010000000100100001100000000010010110000000000000000010000110100000100000101010000010000000000000000010000010000001001001000010000100100000101000010010000010100010000000101000000100100001000000000000001110000001100000000000000000000100001000110010001010100000101000100010001110000011001000001000000000100001101000101000000100000011100001110010000110100001101000001000000100100010100000111010001010100001001000010010001000000000101000011010000100100001001000010010000100000001000000010010000100100000101000001010001110000001101000011000001000100001100000000010000100100000100000000010000110100000100000000010000010000001101000001000000100000000101000001010000100100000101000010000000100100000101000111000000100000010000000010000000010000001101000010010000010100010001000010010000110000000100000001010010100000001101000101010001000000001000000100000000110000001000000000010000010000000101000010010001010000000100000001010000010100011000000001010001110,
0000010010000010000010100000011000001100000001000000000010000110000011000000000010001000000000100000000010000110100011101000110010011000100011000000001000100010100100001000110010000100000001100000000000001000100101001000110010000100000000101000101010000110000000000000100010001010100001100000001000000000100001000000001000000110100100100000000000000010100001101000010000001000100010101000001010000010100000100000010010000100100001100000011000000010100000101000011010000100000000000000001000000010000000101000011000000010000010001000101010000100000000100000101010001000000011000000101010000110000000000000101010001010100001001000001010001010000001100000010010000010000000100000001000000100100010000000010000000100100010101000011000001100100000101000111000000010100011100000101000000100000000100000011000000100100000101000010000000100000100000000010000000100000100100000000000000000100001101001001010010000100011001000001000010110100011001000110010000010000010000000010000000110100101001000011010000100000000101000110010000010,
0000010000000110100001101000110000000100000010100000001000001110100001100000000000000000000001000000000010001000000001000000100000000100100010000000001000000100100000100000000000000010000001100000000010000110000001000000000000000000100001001000011000000000000000000000100000000000100011001000010000000100100010000000011000001000000000101000010000000110100001101000101000000110100000100000101000000110100001101000011000000100000001101000011000001100000001000000010010001010000001100000000010000010100001001000100000010100100010001000100010000010100010000000101000000110100001100000010000000000100000101000001000000110100001100000001000001000000010000000010000001100000111000000101000010000100100000000000000000010100011000000011000000110100001101000110000010100000001000000001000000110000010101000100000000100100011100000110010000010100011000000101000000010000001101000001010001000000000001000001000000010000000001000011010000100000001001000011010000010100001000000001010000110000001101000011000000000100001000000000010000010,
0000000000000000000011000000010010001010100011000000101000000000100010100000101000000000000000100000011010001000100001100000011000001000000001100000001000000100100001101000001000000110000001001000001000000100000000000000011000000000100011100000011010000010000001001000001000000110000010100000000000000100000011001000011010000100100001000000000000000100100000101000110010000010000010101000011000001010000011100010010000000110000000001000011000001100100001101000100000001010000001001001001010001000000101000000010010001100000000000000100010001010000001101001000000001000000001101000111000000100000000001000100000001010100001100000001010000010100001001000010010000010000000100000001000000010000000000000001010000110100001100000010000000010100001000000100000000110100000101001001010000010000001100000000000000100100011100000001000001010100101101000011010000010100010100000011010001000000001001000010010001110000001100000011000000100100001001000110000001010100001001000011010000100000010001000011000001000100010100000101000000000,
1000101010001010000100000000010000000010100001100000101010000100100011101000010000000000100010100001001010000110100010000000000010010010000000100000011000011100100000101001000010000010000011001000010000000000000011101000100010000100100011100000011010000100100010000000011010001010100010000000001010001010100011100000011010001010100001100000010010000010000001000000100000000000000000000000011000000000000000001000011010000100000001001000011010000100100001000000011010000010100000100000011000000010100000100000000010001010000000000000000010001100100000100000001010000110000010101000010010001110000000001000011000000110000000100000010010001110100010100000011000000010100001100000001000000010000000000000000010001110100010000000100000000010000010101000110000001000100100000000000010001100000001100000011000001000100010001000011000000110000010101000101010000010100001100000101010001000100010001001000010001000100010000000001000001100100100001000110000000010000111000000001010000110100001001001000010001010100001000000010010001000,
0000010000000000100001101000011000000000000000001001010000000100000001001001000000000100000010001000001000000110000001101000001000000010000001000000011000000000000000000000001000001000100000101000001010000110100001100000001000000100000001000000000000000100000000100000000010000110100001100000010000000100100100100000011000001010100100000000000000001100100010100000000000001000100010000000101000001000000000000000001000000110100000101001000000000010000001001000100010000010000001101000001010001000000001101000100000001010000001000000001000000110000010000000000010000010000011100000100010000010000010000001010000000000100000100000001010000010000000001000110010000110100000101000100010010100100001100001010000001000000000001001001010001110100011001000001000000000000000000000011000000010000000101000010010000110000000100000000010000100100000101001000000001100000010001000001000000110000001100000000010000010000001000000000010000010100001101000001000000100000001001000010000000100000000001000011000000100000000101000010010000100,
0000100010000010100000101000001010000010000010100000000000001000000000101000011000001000000011101000001010000100000001000000000000000000000000000000001010001100000001000000010010001010000001101000001010001110000010000000011010001010100001000000000000000110000100001000100000000110100000101000110010000110000001101000001000001010100010001000101010001100000001001000011000000100000000100000010000001000000100000000111000001100100010100000010000000100000000100000101000000110000000101000110010001110000011100000100010001000100000101000010010000110000001101001001000001100100010000000000000001100100010100000000010000010100000101000110000000100100000100000010010000100000000100000010010000100100000101000001010000010100000100000010000000100100001100000100010000110100000100000000000000000000000001000010000000010100100100000111010001000100001000000010000000000000000000000001010000010100010000000110010000110000010000000000000000110100001101001000000001000000001101000101000000110100000100000010000000010000001001000010000001010,
0000011010000110000010100000000000000010100011000000111000000000100001101000110010001000000000001000001000000000100010000000011010010100000000100000110000001100000010001000111000001100000100001000111010000010000100100000011010000110100000100000110010000100100010001000010010001000000000100000100010010000000000001000100010000010000011000000010010001000100000100000100010000010000001100000010000000010100000100000010010000100100000100000011000000100100001101000011000000000000001101000010000000010100001000000001010001000000000100000001010000110000010101001001010000010000000101000110000010010100001001000010010000100000010001000101000000010100001000000010000000100100010100000100010001110000001100000000010001000000001100000000010000010000000101000011010000110000000101000110010000010000010101000010000000110100010100000110000000000100011101000001010000100100011000000110010000010100011101000001010001110100000101000110010000100000001101001010000000100000110001000100010010100000010000000101010001110000011000000111010001100,
0000011010000100100100101000001000000000100001001001100010001010000000000000101010000100100010001000010000001100000000100000010000000000100000100000000000000000100001001000001000000110000001100000011010000110000000001000010000000110100001001000010010000010100001000000001010001110100000100000011010000100100100101000011010000010000000100000000010001010100001000000101000000010100000101000011000000010100000101000100000000110100001101000011010000100100010100000100010000010100000101000010000000000100001000000001000000100100010001000010010001000000010001000011010000010000011100000111010000100100001101001001010000010100010001000001010001110100001001000100010001110000000101000100010001010100001100001110000000100100101001000101010000100100100000000010000001010000000000000101010001000100000100000001010000100100000101001100010001110100000100000011000000100100000101000100000001000100001100000011000000100100001100000010000000110100000100000000000000010100001000000011000000010000001001000010000000010000001101000001010000110,
0000110010000110100001000000100000000000100000101001001010001110000010000000001000001010000001001000001000001100000000100000000000001000000001001000110010000100000001100000011010010110100000100000101010001100000001100000011010000110000000100000010000000100000010100000010010000010100001001000001010000100100001100000101000010010100011100000001000000100100010000000100000001010000001000000010010001000000000100000101010000110100101001000110000000110000001001001000010010000100001101000110000000010000001100000100010001000000000100000100000001010000000000000101010000100100100000000000010000110000010100000100000000000000010101000011010000110000001001000011000000100000000000000001000000000000001100000000000000000000001101000100010000100000001000000001000000100000000001000001000000110000000001000010010000100000010101000100010010010100001101000110000001110000011101000001000001110100001000000001000001000000010001000010000000010100010000000011010000100100000100000001010010000000010100000100010000100000011000000001010000100,
1000001000000000000010101000010010000100100010100000100010000100000000101000101010001110100000100000001000001000000000001000001010001010000001100001010000000010000011101001010000010000100010101000100000100000000000000001001010001000000011101000001000001000000000001000011010010000100000100000010010000010100001000000000010000010000000001000010000000010100000100000101010000110000010101000001000000000000001001000001010000100100000101000010000000100000001100000000000000100100000100000001010000100100000101000100010000010000001001000111000000000000001101000100000000010100000100000001000000000100000101000010010001010000010101000001000000100100001101000001000000010100001100000100010001110000010000000001000000010100000101000010000001000100000100000101010000100000010001000101000000000000000101000101010000010100010100001001000000110100000101000101010001000000001000000100010000010100011001000001010001100000010001000111000001010000011101000111000001000100001000000000000010110100000100001000010000110000100100000110010000010,
0000001000000100100010101000001010000100100001101000110010000110000000000000101000000010100011001000110000000010100011000001000000000100000000101000001010000010000000001000010010000110000000000000001000000000000001101000011010000100100001000000010010000010000000101000001010000110100001100000001010001000100010101000001010000110000011101000011010001010100010001000010010001110000011001000010010000010100001101000010000000010100000100000010010000100100010000000100010000100100000100000001000000100100011000000110010000010100001101000001010001000000011100000001000000000100001001000111000000100100000101000011000010010100010101000110010000110100001001000100010010010000011000000101010000110100001100000000000001010000010000000100000000110100010000001011000001100100001000000101010001000100001100000110010001010100001001001100010010000000000100000110000001000100100100000000000000100100011000000100000000000000001101000010010000010100000101000011000000000100001000000000000000010000010000000001000000010000000000000010010000110,
0000110010000010100011100000001010000010100011001001011010010100100001100000011000000000100100100000001000000110100010000000010000000100000001001000111010000100000000101000011010001100100001001000001000010000000000001000111000000010000000001000010000001100000011101000101010001010100000100000001000000000100100000000001000001100000001001000011010011000000001001000010010000010100000100000110010001010100010100000110000000000100001001000100010010000000011100000000010000010100000101000010000010010000010101000001000000100100001000000011000000010100000101000001010010010100100100000011000000010000010101000110010000010000000101000011000010000000000100000000010000100000000101000001010000100000001000000010010000010000000101000011010000010000000001000011000000010000000000000110010001000000000000000100000000000000000101000100010010010000000000000101000000100100001001000101000001110000000100000101000000110000001000000000000000100100010001000011010010010100100100000110000000010000010101000011010000110000000001000001000001100,
0000111000000100000010100000011000000110000001000000001010010000000100001000001000000110100000101000011000000100000001000000010000000100000000100000100000001110100000101000101000001000100101100000000010001000000001000000000000000000000100100000001010001000100000101000010000000010100001001000010000000010000000100000001000000000100000100000011010000110100001100000101010000010000010000000001000000010000000100000000000000010000000001000010010000100000000101000011010000100100001001000001000000110000001100000001010000100000000001000010000000110100001100000001000000100100011101000001010001000000011000000100000000000000001001000010000000010100001100000011000000000000001000000010000001010100001001000110010000100000000100000110000001010100001000000111010000100100001101000001000000000000000000000010010000010000000100000100000000010000010000000000000000000000000000000100000001000000000001000010000000000000000000000000000000000000000000000000000000000000000000000000000000000000000000000000000000000000000000000000000000000,
1000001000000110100001001000011010000010000010101000011010000110000000001000010000000000100010001000100000000010100001001000011000000000100001001000011010000100000000001000010000000010100010100000000000000000000000001000011010000010100001101000010000000100000001000000000010000100100000101000011000000100100000101000010000000010100000101000011010000010000000000000001000000010000000100000000000000000000001100000011010000010100000100000001000000010000000001000001000000000000000101000010010000100100001001000010000000000000001100000000000000010000000101000001010000100000000000000010000000000000000100000011000000000000001000000100000001000000000101000001000000110100000101000001000000000100000100000010000000000000001100000010010000110000011001000010000000110000010001000101010000010000001000000011000000010000001100000100010001010000000100000000000000100000000100000011000000000000000100000001000000110100000100000000000001000100001001000010000000000000000001000011010000010000000100000101000000010000000101000010010000110,
0000000010000100100000100000000000000010000001100000001010000110100000100000110010001000100000100000000010000010100000101000011010000100000000000000001010000110100001000000001000000110000001000000000000000010100001000000000000000010100010000000001000000110000000000000101000000000100001000000001000001000000000101000011000001000000001101000010010000100100000100000010000000010100011001000011000000000000000000000011010000100000001001000011000000010100010000000001000000110000001000000001010000110000001000000010010001000100000100000100000000010000000101000010010001010100000100000011000000100100000101000010010000010000001001000010010000100100001000000010010000100000000001000010010000010100000101000101010000100100000100000100000000000100010000000000000000010100000101000010000001100000000101000100010001000000000001000011000000010100000101000001000000100100001101000011000000010100000101000100000000000000000001000010000000000000001000000001010000100100010001000100000000000000001100000001010000010000010001000010010000010,
0000000000000010000001101000010010000110100001001000010000000010100001001000001000000110000000000000001000000100000000000000010000001010000010001000011000000110000001001000010010000110000000101000011000000000100001101000011010001000100010100000010000000100000000100000010000000000000001000000000000000100100001001000010000000010100001001000010000000010100001101000010010001000100000101000001000000010000000100000010000000110000010000000000000000100100010001000010010000010000001001000010000000000000001100000001000000000100000100000001010001000000001000000001000000010000000100000001000000010100001100000001000000000000010001000010000000000100000101000011010000010000000101000011000000010000001101000100000000000000000101000001000000010100001101000010000001000000001100000100000001010100000100000001000000000000000101000001010001010000001000000000010001000000000000000000000000010000000100000000010000110100001100000000010000110100000100000011000000010000001001000100010001100100001000000011000000100000000100000001010000110,
0000100000000110000000000000001010001000000001000000000000000110000000000000000000000110100001100000001000000100100000101000010000000110000000001000001010000110000000000000000000000000000001100000011000000010100001001000001000000000000001100000100010000100000010000000101010001000000000001000010000000110100001001000001000000010000001000000100010000010100001101000011010000110000000101000101000000010000000100000001010000010000001001000011000000110000000100000001010001010100010001000001000001010000000100000100000000100000000100000001000000110000000000000010010000100100001100000100000000010000000001000001010001010000000001000001010000100100001100000001000000100100001101000011010000110000001101000001010000100000001101000011010001000100000100000001010000110000001001000100010001000100001100000010000001010100000101000001010000100100010000000011010000010100001000000011010000010000000001000100010000110000000000000010000000000100001001000100010000100000000000000000010000010000001100000000010001100100001001000010000000010,
0000001000000010000001000000100010000110100010001000001000000010000001100000101010001010000000001000010010000010100010100000011000001010000010100000100010000010000001100000010010000100000000100000011000000000100001101000001000000000100001100000100010001000000000001000101000000000000000000000000000001010100001101000100010000010000001101000001010001000000000101000100000000110100001000000011010000010000010001000100010000010000010001000001010001000000000101000101000001000000000001000010000001000000010101000010010001100000000100000000010000010100001100000001010000010100000101000001000000110000000000000010000000000000001000000000000000100000000100000100000000000100010100000001000000010000001101000110010000010000000000000000010000110000001000000000000000000100001001000011000000000100001101000001000000000000000001000011000000000000000100000010010000110100001000000001010000010100000101000100010000010100000100000000000000100000001000000011000000110000000001000100000000110100000100000100000000000100001000000011010000010,
1000010000000010000010000000001000000010000000100000001010000010000001000000101010000010000001101000100000000000000001000000011010000110100001000000100010000010000001001000010000000010000001000000010000000110100001001000011010000100100001101000001010001000000001000000101000000010000011001000011010000010100001001000011000001010100001000000001000000010100001100000000000000100000001101000001010001000100001101000001010000100100001000000001000000110000000101000011000000100000001000000000010000110000001101000100010000110000000001000011010000100100010000000000010000010000001101000011000000110000010001000001000000010000001100000001010001000000001000000000010000110000010000000101010001000100000101000010000000010000010100000000000000110000001100000000010000110000000000000001000001000000001000000011000001000100010001000011010000010000000101000010000000000000001101000010000001000000001001000001000000110100001000000000010000100100001001000011000000110000001101000001010000100000001001000011010001000100001000000001010000100,
0000010010000100000000101000010000000010100000100000010000000110000001000000001010000100000000001000001000000010100000100000001000000100000000101000010000000110100001000000011010001000100001101000001010000100000000100000001000000000100001100000010010000100000001001000010000000000000000000000101000000000000001100000011000000110000000000000011000000010000000100000000000000000100010000000010010000010000000100000001000000100100001001000001000000000000001001000010010000110000000101000011010000010100001100000011000000100100001100000010000000010000001000000001010000100000000000000000000000110000000101000010000000100100001000000000000000100100000100000000000000110000010000000010000001000100000101000100010000010000001001000101000000110000000001000010000001000100010001000011000001000000001001000011010010000000001000000000000000110100010001000001000000110000000000000011000000100000001001000100000000010100010001000001010000110000000100000000010000100000001000000101010000010000001000000010000001100000000101000101010000010,
0000001010000110100010000000010010001010100000101000010000000000000000100000011000000010100000101000101000000000100010001000011000000000100001100000011000000010000000101000011000000010100001100000001010000110000000100000010010000010100001100000000010001010000001000000010000000000000010000000000010000010000001001000011000000010100000100000011010000010100001000000010010000110000001001000010000001000100000101000001010000010000011101000100000000110000000100000000000001000000000001000100000001000100001100000010000000000000010000000001010000010000000000000001010000010100001000000001000000100000001101000101010000100000000000000001010001000100000101000010000000110000000001000100010000010100000100000001000000110000000100000000000000100100001000000000000000010100000100000010000000010100001000000000010000010100001101000001000001010000001100000001010000010000000000000100010000100000001000000000000000000100000100000101010000010100001100000011000000010000001101000101000000110000000100000001000000000100010100000010000000100,
0000010000001000000001000000000010000010000000000000010010000110100001001000001000001000000000001000011000000000000000001000001000000100100010001000001000000110100010000000010000000000000000101000001000000000000001001000001000001000000000001000001000000110100010001000010000000110000001100000010000000000100001000000001000001000000000100000001010000110000001000000001000000110000000001000010000001010100001100000100000000100000000001000101000000010000000101000011000000010100001100001001000000000000000101000001000000110100001100000010000000110000000000000101010000100100000100000000000001110000010000000001000001010100010000000000010000100000001000000000010000100100001100000000000000010000000101000101000000010100001101000001000000000100001000000001000000000100000100000000000000000000001001000001010000100100011001000011000000110000000100000011010001000000000100000011000000000000000001000100000000010100000101000011000000100100010001000010010001000000000000000001000000010000000000000011000000000000001100000010010001000,
0000001000000100100001000000000000001000100001001000001010000100100001100000001010000100100001001000001000001000000001100000000000000010100001101000011000000100000000000000010010001000100011000000001000000110000001000000001010001000000001001000001000001000100010000000011000000000100001101000011010001000100001001000010000000000000000001000010010001100000000000000010000000100100001001000101000000010100001000000100010000110000001000000000000000010100010101000011000000010000000100000010000000010000001001000011000000010000000101000100000000100000000000000000000000100100000101000001000000110000000000000010000000010100000101000001010000100000000000000001000000000000001000000000000000110000000001000100000000110100001001000011010000100000001001000001000000110000000100000100000000000100000100000001010000010100000101000001010000110000000101000001000001000000000100000000000000010000001000000010010000010100001000000100010000110100001000000010000000000100010001000011000000000000000101000001010000110000000000000001000000110,
0000010000000100100001100000011000000100000000101000011000000000000001100000000000000100000000000000010000000000000000100000000010000110000000000000001000000010000000000000001000000010100010101000001000000110100001000000000000000110100001101000100010000010000010000000011000000000000001100000010000000000000001101000001010001010100010100000011010000100000001100000100000000010100000100000010010000100100010001000001000000100100001101000100010000100100000100000010010000010000000100000100000000110000001100000011000000010000001000000100000000110100001100000010000000100000010001000001000000110000000100000001000000000000001101000001000000110000010000000110000000110100001101000100000000110100000100000001000000110000011000000100000000000100001100000011000000010100000100000000000000100100001000000000010000010000001001000101010000010000000100000011000000110100000100000100000000000000000000000001000000100000000100000001000000010100000101000011010000100100001000000000010000010000001100000010000001000000000001000011010000110,
0000010000000100100000100000011010000110100001001000011000000000100001001000001010000110000001001000101000000010000001000000001000000010000011000000001010000110100000101000011010000100100001000000000010001000000000100000000010000110000000001000011010000110100010001000101000000100100000100000100000000100100001000000010000000010100000100000001010000110000001101000001000000100000001000000000000000000000010000000011010000100100000100000011000000010000000001000011010000010100001101000001000000100000001000000010000001010100000100000000000000100000001000000010010001000100001000000000000000010100001101000011010000010100000101000010010000100000001001000010000000100100001101000001010000100100001001000011010000100100001100000001000000110100010000000000000000110100001101000010010000110000000100000010010000100000001001000001010000100100001000000001000000000000001100000010000000000100000100000001000000010100000101000001010000010000000100000000000000010100000100000001010001000100000100000010010000110000001101000011010000100,
0000011010000010000001000000001010000110000000101000001010000110000000100000011000000100000000100000010000000000000000000000101000000010000000100000010000000110000000100000011000000010000000000000000000000100000000001000001010001010000001100000011000000000000000100000000000000000100001100000001000000100000000101000100000000100100011001000001010000110100000100000001000000100000000000000000000001000000000101000011000000010000000001000100000000010100000100000010000000010100000100000000010000010100000101000011010000100000000100000001000000000000001100000001010000100100001100000000010000010100010001000001010000010000001001000001000000110100000100000010000000000100000101000001010000010100001001000010000000010100000100000011010001000000000000000010000000010000001001000100010000010000000100000001000000110100001000000001000000100000010001000001000000110000000101000001010001010100000101000011010000010000000101000001000000000000001001000100000000000100001000000001000000010100001100000010000000100100001001000010000000000,
1000001010001010000001000000011000000010000001101000001000000010000000101000001010000100000010001000001010000110100000100000101010000100000000000000000010001000100000100000000000000010000001101000010010000010000001000000110010000010000001000000011000000000100001000000100000000000000000000000101000001000100000100000010000000000000010000000001010000110100001000000100010000010000010100000010000000010100001001000011000000110000001001000010010000100000000100000000010001100100010000000010000000100100010000000010000001000000001101000001010000100000011001000011010001000100100001000110000000100000001101000010000000010100000101000011000000000000010001000010000001000000000100000001010000010100001100000010010001100100000100000001000000000100000101000001010000110100001000000010010001000000000000000010000000100100001000000001000000000000000100000011010000100000001101000011000000100000000100000000000000010000000100000011000001010100011101000010000001010000001100000001000001010000001101000011000000110100000101000001010000110,
0000010000000000100000101000011010000110000000001000010000000010100010000000000000000100100001100000010000001100000010001000010010001010000001100000000000000100000001000000001010000010100001101000010010000100000001001000011000000010000010000000010010000110000000001000010010000110100000101000101000000000000001101000011000000010100000101000011010000010100001000000001010000010100001000000000000000000000001001000001010000010100001101000011000000110000000001000011010000100000001000000101010001000100001001000100000001000000000100000001000000110100010000000011000001000100010100000010000000100100010001000001000000010100000100000000010000100100010000000010000000010100001000000011010001000000010000000001010000010000000100000001010000010000001100000000000000000100001101000001010001000100001000000000010000100100001001000001000000000100001000000110000000100000001001000010000000010000001100000010010000100100010100000001000000010000001100000100000000100000001001000010000000100100001001000001000000100000010100000100010000100,
0000001000000010100000100000001000001000100001000000011010000100000000001000001010001010000000001000010010000010000000100000010010000110100010000000000010000110100000100000100000000100000000100000011000000000000000101000001000000110000001001000011000000010000001001000010010001000000000100000000010000010000000100000010010000110000001101000010000000110000000100000001010000100000000000000000000000110000001101000011010000100000001001000001000000010100000101000010000000110000000001000001010001000100001001000011010000110100001100000001000000000100010001000100010000010000000101000010000000000100010100000000000000000000000001000001000000010000001001000001000000010100001101000010000000000000001100000001000000110100000101000100010000110100001001000010010000100100000101000001000000010100000100000101000001000000001000000011010001000000000001000001010000100000011000000100000000000000001100000001010000110000001100000010000000100000000101000011010001000100010100000000000000110000000101000010000000100000000100000000010001000,
1000010000000100100011000000011010000010100001000000001000000000000010000000010010000110100001101000010000000010100010000000001000001000000001101000010000000010000000101000010010000110000010100000011000000000000001000000000000000110000001000000010010000100000000001000001000000110000001000000000000001000100000100000000000000010000000100000011010001010100000101000001010000010100010001000001000000000000010000000010000000110100000100000011000000010100001100000000010000110100001001000011010001000000000000000000010000100000000100000010000000000000001101000010010000100100010000000001010000100100000100000001000000010100001000000001000000110000000100000100000000100000010101000001010000110100000101000010000000110000000101000001000000000000000100000001010000100000000101000010000000100000000101000100010000110000001001000100010000100000000000000010010000100000000100000010010000110000000001000010000000000000000001000010000000000000000100000010000000110100000100000000000000010100001001000010000001000000000001000100010000100,
0000011000000000100001100000010000000000000010000000001010001010000001100000010000000100000001001000110000000110100001100000010010000100100010000000000010000100000000100000001010000110000001001000010000001010100010100000010010000010100000100000001010000110100000100000000000001010100000101000010000000110100001100000000010000100000000101000011010001000000000101000100010000010000000100000001000000010000001100000000000000110000010101000011000000010100010001000110010001000000001001000001010000100000000100000010000000110000001000000001010000010000011000000001000000100100000100000000010000100100001001000100010000010000000001000001010001100100001100000010000000100000001000000000010000110000001000000000010000100000001000000000000000100000001100000011010001010100001100000000000000110100010001000010010000010000001001000001010000100000001100000000010000100000000100000011010000010000000001000010000000110000000101000001000000110100001101000011000000110100001000000100010000100100000100000001010000010000001100000010010001000,
0000100000000110000001000000010000000110000001000000100000010000100000100000011010000110100001101000010000001000100001101000011010000110000001101000101000001010000001100000010000001100000001001000101000000000000000100000001010000010000001100000010000000110000000100000100010001110000000101000011010000110000001100000000000000100100001000000010000000000000000100000000010000110100001000000000010000100000000001000011000000100000000100000000010000010000001101000011010000010100000101000100010000110100000101000001000000000000000001000110000000010000001000000000000000110000000000000001000000100100001001000010010000110000001000000000000000110000001001000001000000110100000101000001000001000000001100000001010000100000011000000000000000010000010100000000010000100000000001000001000000100000001000000001000000100100000100000001000000010000000101000010010000100000000101000100000000000000001101000011000001000000001001000001010000100100001001000001010000110000001100000001010000100000000100000011010000100000000000000010000000100,
0000100010000010100001000000001000000010100010001000100010000100000001000000010010000010100001000000010000000010100001000000001000000100100000100000000000000100100000101000001000000110000000001000100000000010000001101000011000000010100000100000100000000010000000001000010000001000000000001000011010000010000000101000010010001000100010000000100000000100000000000000001010000110100001100000011010000110000001000000001000001000100001100000000000000110000000101000001010000100100000101000001000000000000000001000001010001000000001000000010010000100100010101000011000000000100001100000001000000000000000100000000000000100000001001000100000000110000001101000001010000010000000000000001000000100100001000000010010000100100001100000001010000110000000001000100010000110100000100000001000000100100000100000010000000110100000100000010000000010000001000000010000000110000001101000011010000100000001101000010010000110100001101000010000000010000010000000011000000000000000101000010010000100000010001000100010000010100010000000001000000010,
1000001000000010000001000000000000000000100001100000101000000000000000001000001000000000000001000000000000000010100000101000011010000010000000001000001010000010000000001000011010000100000000001000001000000010100000100000011010000100000001001000001010001000000000101000001010000100100001100000011000000100100010101000100000000110000010001000001010000100000001100000010010000010000001100000000000000010100001100000000010000100100010101000011000000000000000101000010010000100100000100000010000000000100010101000100000000010100010100000010010000010100001101000010000000100000001001000001010000110000001000000000010000110100001000000000010000010000010001000010000000010100001000000001010000100100001101000011000000100100001001000101010000110000000001000010010001010000000101000001000000100000000100000001000000010000000100000010010000010000001100000000000000010100000100000001000000100000001001000010000000100000000001000010000000010000000001000001000000100000000101000011010000010100001101000001000000100100001101000001010000010,
0000100000000110000000101000011010000110100000100000000000000000100001001000001000000000000001100000000000000000000000100000000010001010100001100000100010000010000001100000001010000110000000001000100000000100100001100000100010000100000001000000000000000100000010100000010000000110000001100000111000000110100001100000110000000100100001000000000000000010000010101000010000000010000001001000010000000010100001000000000010000100000000001000001000000100100001101000001010001000000000101000010010000100000010000000001010000010100000101000011010000010000010000000011000000000100001001000011010000100000000001000011000000000100001000000001000000010000000001000110000000000000000000000001010000100100010001000011010000110000001001000011000000110000001100000011010001000100000100000100010000010000001000000000010000110000001100000001000000010000000000000010000000000100010101000001000000100000010001000001000000100000000100000001000000100100000100000010010000100100000100000000010000010000001000000001010000010000001001000001010000010,
0000000010000100000001100000000000000010100010000000000000000100000000101000010000000010000000000000001000000010100000100000100000000010100000101000010000000010000000000000011010000010000001000000100000000100000000101000001010000100100000100000100010000100000000001000010000000010000000101000011010000010000001100000000000001100000000001000100010001010000000100000010000001000000001000000011000000000000001101000011000000110000000001000010000000100000000000000001000000100100001001000100000000010100001001000001000000110000001000000010010000010000010001000010000000010100001101000011010000010100011001000010010001000100001100000000010000010100000100000010000000000000000100000100000000110100000100000000000000010100001100000001010000010000000000000000010000100000001000000000010000110100000100000001010001010000000101000001000000100000001001000001000000110000001001000010000000110000010001000001000001000000000000000000000000100100011001000001010000010000000001000011010000010100001001000011000000110100001001000010000000110,
1000111000000010000001000000010000000100100010100000001010001000000000001000001000000000000000101000001000001010000000100000000010000110000000100000010000000110100001000000001010000100000011001000010000000110000001000000000000000010100000100000001000000010100001000000001000000110000011000000011010000100100000101000011010000110100001001000001000001110000000001000100010000110000000000000001000001010000000101000100000000110100001001000010000000000100000100000000000000000000000000000110000000000100000100000001010000100000000100000000000000010000010001000011010000100000001100000000010000010100001101000001000000110000000001000011000000100000000100000010000000000100001001000001010000010100001100000001000000010000000101000001010000100000001001000010000000110000000000000001000000100000001000000010010001000100001000000011000000100000000000000011010000010000000100000010000001000100000101000001010000110000001101000011000000100000001001000100010000100100000101000110000001010100000100000000000001000000000000000001000000010,
0000000010000110000001001000010000000100000001000000011000000010000001001000101000001000000001000000100000001100000001001000010010000010000010000000000000000100100011001000001000000110100000100000000010000100100001101000001010001110100001001000010000000100000000000000101010000100000000101000010010001000100010101000001010000010000001001000001010001000100010000000101000001110100001101000011000000110100001001000001010001100100001001000011010000110100001101000001000000100000001000000010000000000100001100000100010000100100000101000100000000010000001101000001000000010100001001000011000001000000000100000010000000000000001001000100000000100000000000000010000000110000000101000010000000000100000100000001010000010000000000000001010000110000001100000010000000010100001100000010000000010000000000000010000000010000000100000001010001000000001101000011010000110000001101000011010001010000000100000000000000000100000100000100000000110000000001000010000000100000001000000001000000010000000001000010010000110000001100000001000000110,
1000100000000100000000000000010000000110000000000000010000000000000001001000001000000100000001001000010000000000000000000000001010000100100001101000101000000110100001001000001000000010000000101000001000000000000001101000011000000000000000001000010010000110100001101000011010000010000010001000011010000010000001000000000010000100000001001000010000000010000010001000010000000010100001101000011000000110100001000000010000000110100001000000000000000010000001001000001000000000100000100000000000000000100001001000001010000100100000101000001010000100000000000000011010000110000000000000001000000000000010001000010000000000100010001000010010000110100001101000011010000010000001000000000000001000100001001000001000000010000001001000001010000110100001100000100000000110000000101000010000000000000000101000010010000100000000101000010000001000100010100000100000000000000000001000001010000010100000100000000000000000100011001000011010000110000000000000011000000010000000100000010010000010000000100000011010000010000001001000011010000110,
0000011000000110100010100000011000000000100010100000100010000110100001001000001010001000000000001000011000001000000001000000011000000100000001100000001010001000100010101000011010001100000000100000001000000010100001000000001000000000000001100000010010001000000000100000001010000010000000000000011000000000100001101000010010000100100001101000010000000100000001000000010010000110000010100000000000000100100001000000010000000010000010001000001000000010000000101000010000001000000000101000010010000010000000101000001010000100100010001000001010000010100010001000011010000100000000001000001000000110100010001000010010000100000000101000001010000010000001001000001000000100100000100000010010000010000000000000101010000110100001101000001000000110100001000000001000000100100001001000101010000010000001000000001000001010100000101000001000000100100001100000010000000010000001101000001000000010100010101000101000000100100001100000001000000110000000100000011010001000100000101000101000000100100001001000010000000000000001000000010010000010,
1000011010001000000010100000010000000000000000100000011000000010000010000000100000000100000001101000100000000110000000000000011000000010000001101000011010000010000001000000010000000000100001001000001010000010000001001000011010001010000000000000000010000010100010001000011000000010100001100000010000000000000000000000011010000110000000000000000010000110100001001000010000000010000001001000010000000010000000001000010000000000000000101000010000000000100011101000010010000110100001100000001000000010100000101000011000000110100010101000011000000000100001100000011010000010100000101000100010000110100000100000000000001010100000101000100010000010100000100000011000000100100000101000100000000110000001000000001010000010000000000000001000000000000000101000001010000110000000001000101000000100100001000000011010000010100001000000000000000000100010000000010000000000000000000000001010000010000001001000001000001000000000100000011000001000000001000000010010000110000000000000001010000010000000000000100000000010000001100000001010000110,
1000010010000010100010000000010000000010000010001000100000000100000000001000011010000100000000100000001000000000100001000000011010001000000000101000010000000010000001100000010000000000100000101000001010000010000001100000010000000110100000100000010000000010000001000000011010001100000001001000001010001000000001000000100010001000000000000000000010000010100010000000010000000010000000100000001000000100000000101000011000000110000001001000101010000100100001000000010000000000000001100000011010000010000000001000001010000010000000000000001000000010000010101000010010000100000000001000001000000110000010000000010000000100100010000000000000000110100001100000100010000010000001101000011000001010000001101000011000000100100010100000010010000110000000001000001010000010100001100000101000000000100000100000010010000010100001000000011000000010100010000000011000000000000001001000001000000110000001000000000010000100100001100000011000000010000000000000001010001100000000101000011000000010000000101000001010000110000001101000101000001000,
0000011000000100000000100000010010000110100000100000010010000110100001101000110010000110100001100000001010000110000001100000000010000100000000000000000000000100000001000000010000000010100001101000010000001010100000100000011000000100100001000000010010000010100001001000010010000010100001001000110010000010100001001000010010000010100000100000001000000000100000101000010000000110100000100000000010000100000000001000010010001100100011001000010000000010100000100000110010001000100001000000000010000100100010000000001000000100000000101000010010000010100000100000011000000000100000101000001000000100000011000000010000000000100001000000001010000100100010000000010010001000000010001000010000000010000000000000010000000000100000100000011010000100000000000000101010000010100001000000000000000000100000100000001010000010000000000000000010000110100000100000010010000010100001001000011000000010000011000000001000001000000001001000001010000100000000001000010000000000100000100000001000000110100000100000001010001010000010000000100010001110,
1000001000001100000000100000001000001100000001000000011000000010100000101000010000000010000000000000010000000100100001101000001010000100000000001000001010000010100001000000001010000100000000001000100010001000100001001000001010001000100010100000010010000100000000101000011010000110000000000000001010001010000001000000100000000010100010001000101010000100000001001000101000000000000001001000011010000100100000101000010010000010100010001000001000000100000000001000100000000010100001100000000000000010000000000000001000001010100000101000001000000000000001100000000000000000000000000000000010000110000000001000011010000010100000100000100000000000000001000000011010000110000000100000001010000010100001000000010010001000100001100000011010000100000001101000010000000000000001001000010000000000000011000000100000000110100001001000010010000110000001000000001000000000000000100000001010000110000001100000001000001010000000001000011000000100000001001000011000000010000000101000010010000110000010001000010010001010100010000000001000000010,
0000001010000010100000101000001010000100000001001000010010000110000010100000010010001010000000101000011000000010100010000000001010000100100001001000011000000000100001000000000010000010100000101000001000000000000000001000001010000110000000101000010010000110000000100000100000000100000001100000001000000010000010001000010000000000100010000000010010001010000001101000001010000110100001000000011010000110000000100000000000000010100001000000001010000010000000001000010010000010000001100000011000000000100001000000001000000000100001000000001010000100000000000000000010001000100000100000001000001000000000101000011010000100000001101000011000000000100000100000011000000100100000100000011010000100100000100000001010000010100001100000100000000000100000101000100000000100100001000000001010000110000000100000000010000110100000100000011010000100000001000000010000000100000001101000001010000110000001001000011000000010000000101000001000000010000000101000001000000100100000100000100010000110000000100000011010000010000000001000010010000110,
1000010000000010000000101000011010000010000000000000010000000100100010000000000010000110100000101000001000000100000001001000010000001000000001000000000000001000100000101000100000000000100001100000010010000010000001001000010000000010000010000000000000000010100001001000100000001010100000101000010010000010100010000000111010000100000000000000111010000100000000001000001000000110100001100000000010001010000000001000001010001010100010101000101000000000000001001000111000000000100001101000001000000000100010101000010000000010000000100000000000001000100000101000001010000010000010101000011000000100000000001000001010000010000001100000010010001000100001001000011010001000000010000000000000000000000000101000001010000110000010000000110000000100000001000000011000000000000001000000010000001010100001000000100000000010100001001000001010000100000001000000011010000100000001001000001000000000100001000000010000001010100010001000010000000100100000101000101000000100000001001000100010000100100000100000000000000100000000000000011010001010,
0000010000001000000001001000011000000100100000100000000000001100100000100000011010000110000001000000100000000000000000001000001000000000000000101000011000000100000001001000001000000010100000100000010000000000000000000000011010001000000001100000000000001010000000000000001000000110000000100000000000000110000001000000000000000100100000101000100010000110100001101000011010010000000000100000011010000110000000000000001000000000000000100000000000000100000000100000001000001010000010001000011010001000000000100000100000000000100000101000001000000110000000000000001000000000000000100000001000001010100001000000000000000100000011001000010000001000000001000000001000001000000001001000001000000000000000101000010000000110000011001000001000000100000000000000000010000010000010000000000000000010100001100000000010001010000000100000000010000110000001000000010010001000000000100000010000000000000000000000010000000010000000101000011010000010100010100000001000000110100001000000011010000110000000100000011000000000000001000000000000000110,
1000011010000100100001001000011000000000000000001000100010000110100010001000100010000010000000000000011010000010000010001000011000000100000001000000100000000010000001000000011000000100100001100000011010000010000000001000100010000010100001001000001000001010100001000000010000000000100010000000000010000110100001001000101010000100000000000000100000000010100000100000100000000110000000101000001000000110100001100000000000000000000000000000010000000000000000000000001000000110100001100000001000000100000000100000010000000110000000000000011000001000000000001000010010000100000000100000011010001010000001100000000010001000000000100000001000000000100000101000001010000110000001100000000010001000100001000000100010000100000001101000010000000110000000001000010010000110100000100000001010000110000010101000011000000010000010000000000000000010000000000000001000000000000001101000010010000010000000001000011010000010000000101000100010000100000010100000001010000010000010000000011000000010100001001000001000001000000000100000000000000100,
0000010010000110100000100000100000000010100001000000011010000100100001101000001010000010100001001000001000000100000000100000110000000100000010000000010010000100100000100000001010000100100000101000001000001000100001001000011010000110100001101000011010000010100001001000101010000010100000100000100010000110100001000000001000000000100000100000000000000000000000101000010000000010000001000000000010001000100001101000010000000000000001100000100000000000000001100000001000000010000000000000000000000110000000100000000000000100100001101000001010000010100001000000001000000010000001001000010010000100000000000000001000001000100001001000001010001010000001000000001000001010100001000000011010000100100001100000011010000010100001001000101000000010000000101000001010000010000011000000001000001000000000100000011010000010000000100000010010000010100000101000010000001000100000101000001010000110000010101000011010000010100001000000000010000100100001000000001010001000000000000000100000000110000000001000001000000000100001000000001010000010,
0000000000000110000000100000001010000100000001101000010000001000100010000000001000001000100000100000011000000010000001000000101010000110000001000000001000000100000000101000001010000010000001001000001010001000000000001000100000000110100001100000001000000010000001100000000010000110000001000000000010001000100010001000011010000010000000101000001010000100000010100000010000001000000000100000000010000100000000100000000010000110000001101000001000001000100001001000001000000100000001001000001010000110100001101000010010000110000000100000011000000000000001100000010000000010000000001000010000000000100001000000011000000010000000100000010010000100000001000000000000000000100001000000000000000110100001001000011000000100000001100000011010000100100001100000001010000010100000100000010000000110000001000000000010000010000010000000011010000110100001000000010000000000100001000000001010000010000001000000001000000100000001101000001000000100000000000000000010000010000001100000000010001010000000001000001000000010100000101000010010001010,
1000011000000000000000000000000000000010000000101000001010000010000000001000100010001010100001001000011000000010100010001000001010000110000001000000001010000110000001000000010000000100000001000000000000000110000001000000101010000110100010000000011010000100000000001000011010000010000000000000011010000010000001001000010000001010000000101000100000000100000000001000011010001010100000101000001010001000000000101000001000000100000000101000001000001000000000100000010010000010000010100000011010001000100001000000001000001100000000000000000000000010100001001000011010001000100001001000001010000100100001000000100010001000000000000000000000000100100010100000011010001110100001000000011010000010100010000000011010000010000000100000000010000100100001000000001000000100000001100000010010000100100000100000000000001000000001000000010010000010100000100000001010000010100001100000000000000110100000100000011010000100000001001000010000000000000001000000001010000110100001000000011010000100000001000000011010000100000010000000001000001010,
0000010010001000000000000000011000001000000001001000101000000000100001001000001010001000100011101000011010000010100000100000101000000000100000100000001010000010100010001000100000000100000000001000010000000000000000001000011000000010000001000000001010000010100001100000110000001100000010100000001000000100100001100000011010000010100010001000010010001000100001001000001000000110100001100000011010001000100001000000000000000100100010001000011010000010100010001000101010001100000000100000101010000100000001100000011010000010100001000000000000000100000000001000001000000010000001001000001010001010100001100000010000000010000010001000001010000100000000000000000010000010100001100000001000000000000000000000010000000110100001000000000010000010000001000000000010001000100001000000001010000110000010000000001010000100000001101000010000000110000000000000000000000010000000101000100000001000000000001000100010001000000010101000110010000100000000000000010010000110000001000000100000001010100001000000000010000110100010001000001010000110,
1000001010000010100010000000000000001000100001100000001000001000000000000000011000000100000000000000001000000000000001100000000000001000100010101000010010000100100010001000010010000010000001000000100010001000100010101000010000000010000001001000101010000110000010100000001000000100100010001000011010000010100000100000001010000010000000000000010010001000000001000000010000000010100001000000010010000110000000100000001000000000100001100000010000000110000010100000000000001010100001001000001000000110100001101000010000000000000001000000000010000100100000101000001010000010000000000000001000000100100001001000010000001000000000001000011000000100100000101000001000001000000010001000001000000010000000000000010010000100000001101000001000000100100000100000010000000100000000000000011000000110100011000000000000000100000010100000001010000110000001001000011000000100100000100000011000000100100000100000000000001000100000101000001000000110000001101000010000000110000000100000000010000100100001101000001010000100100000101000010000000110,
1000010000000000100001000000001010000010100001001000001010000100100001100000000000000010000000100000000010000010000000100000010010000010100001100000001000000000000010001000100010000100000000000000010000000100000000101000001000000000000000001000011010000110000001100000001010000100000001100000000010000100000001000000001010000110100010100000100000000010100001000000010010000100100000100000001010000010000000001000010010000100000000101000001010001010000000100000000010000110000001100000010010000110000000101000010010000110000001000000000010000100000010101000011010001010000000000000000000000010000000101000001010000100000010001000110000000000100010001000010000000010000000001000001010000110000001001000010000001000000000101000100000000010000001101000100000001000100001000000100000000100000000000000010010000100000001001000001000000100000000100000000000000010100010000000000000000110000001000000000000000010000001100000010010000010100001100000000000001000000001001000100000000010000000000000100010000010100010101000100010000010,
1000011010000110000001100000000000000000000001000000010000000110000000100000000010000100100001100000000010000010100010000000011010000100000000101000001010001000100001000000001000000010000000000000001010000110000000101000010010000010000000100000100000001100000010000000010010000110000001000000100000000010100000101000010010000110000010101000100000000010000001001000001010000100000001100000001010000110000000001000010010000010000000100000010000000100100010101000100000001000000000000000010010000100000000001000100010000010100001101000101000000010000001000000000000000000000000000000011000000100000010100000010000001000000000001000001010000110100000101000001000001000000001000000000010001000100001100000101010000100000001000000001000000010000001001000011010000100000010001000011000000000000000001000001010000100000000001000001000000000000000001000010000001000000000000000001000000000100001101000101000000000000000001000001000001100000000101000001010000010000000101000011000000110100000101000001000001000000001000000011010000010,
0000001000000000100001000000001000000100000000001000011000000100000000000000000010000010000001101000101010000010100001001000001010000110000000101000010010000100100000100000011000000100100000100000001010000100100000100000001000000010000001001000001000000010000010000000101000000010100000100000101000000010100000101000111010000010100001100000001000000110000010000000000000000110100001001000011010000010000000001000010000000100100001001000100000000010100001101000100000001000100010101000100000000000100001000000010010000010100010100000000010000010000001000000000000000000100001100000000000000110100001001000001000001000100001101000011010000010100000100000001010000100000000101000101000000010100000101000010000000110000001000000000000000010000001100000010010000010000000101000011000000010100000101000011010000110000000001000010000001000000000000000001000000110000000001000001000000000000000101000101010000010100001001000001000000000000001000000110000000000000000100000010000000010000001001000001000000010000001000000001000001010,
0000010000000010100001100000000000000100100000100000010000000000000001100000010000000000100000101000010010000010000000100000010000000110000000101000010010000100000000101000010000000010000001100000100010001000000000100000001010000110000000101000100010000110100001101000010010000100000001000000000000000000000000100000001000001000000000100000001000000000100001000000010010001010000010001000011000000010000010000000001000000010000010101000011010000100000001001000010000000110000001000000010000000100000001001000001000000100100000101000001010001010000000001000001000000110100001100000000000000100000000100000010000001000100001000000010000001010100001000000011010001010100001100000010010000100000001001000011000001000100001000000000000000010000000001000001000000010000000000000011010000100100000101000001000000110000001101000010000000010100001000000010010000010000000101000001000000000100001000000000000001000000000001000001000000010100010000000100000000000000000000000000000000100000011001000100000001000000000101000100010000100,
0000010000000000000000100000000000000010100010001000110000000010000001100000000010000110000000001000001000000100000001100000011010000110000000000000010000000100100000100000000000000000000001100000011010000010000000101000010000000000100001001000100000001010000000001000101010000100000000100000010010000100000011000000010000000100100001001000110010000010100000100000010010001000000001101000010010000110000000100000101000000110100000100000010010000110100010100000001010000100000010001000011000000010000000001000001010001010000010101000010000000000000001101000011000000110100001101000010010000100000000101000011010000110000000001000010010000010100000101000001010000010000000000000000000000000100000100000000010000100100000100000000000000100000000000000000010000010100001100000001000000010100001000000101010000010100010100000011010000100100000101000001000000000100001000000000000000110100000101000001000000100100001000000001000000110100001000000000010000100000001000000000000000010000010000000010000000010000001001000010010001100,
0000101000000110000000001000010000001010100000101000100000000110100000100000011010000010000001101000010000000000000010000000110000000100000000100000010010000100000000001000100000000110100001001000101010000100000001101000100010001010000000001000001010000110000000000000001010000100100000100000001010001010100001000000010010000100100000101000011010000010000010001000001000000010100000101000001010000100000000000000000000000010100001001000011000001110100010101000100010000010000000001000100010000010000000000000001000000100000000000000001010000100100000101000010000000100100000101000100000000010000010000000000000000110100010001000001010000010000010101000010000001000000010000000000010000010100001100000001010000010000011000000001000001000000001101000101010000010000001001000011010000010000001100000000010000100100001001000010010000110000000100000011010000110000000100000100000000000100001001000011000000100000001100000001000000000100001100000001010000100000000101000100010000010000000100000011010000110000001000000000010000100,
0000101000000010000010001000011010000010100001100000000010001010000000001000010010000010100001000000001010000110000000000000010000000010000001100000010010001000000000101000010010000010000000001000010000000110000010100000010000001010000001100000000000000010000000000000010010001010100001001000001000000010100001001000010000000010000000100000001000000100100001100000000010000100000001000000001010000110100001001000001000000000100000101000011000000010100010101000001010001000000000101000010000000110000000000000000000001010000010101000100010001000000001101000011000000110000001001000010000000010000000000000001010000010000000100000001010000110000001101000001010001000100000101000100010000110000010001000011000000100000001001000100010000100000000100000000000000110100000100000100010000010100001101000010000000010000001000000010000000100000000001000011010000010100001001000011010000100000000100000010010000010000000100000011010000100100000100000001000000000100001100000100000000110000001000000100000000110000001100000100000000110,
0000010000001000100001001000010010001000100001100000100000000000000000101000001000001000000000000000001000000000100010101000011000000010100010100000011010000010000001101000100010000110000000101000010010000110000001001000010000001000100000100000000010000100000000100000000000000000000000100000001000000000000000000000100010000100000000000000011010000100000000001000101000000010000000000000000000000100000001001000001010001000000001101000010010000110100000101000010000000000100000101000001000000000000000000000001000000100100000101000001000001010100001100000000010000100000000101000001000000110000000101000100000001000000000101000011000000010100001100000000000001000000001001000010000000110100001100000010010000100100000100000011010000010000000100000010010000010000001101000001000001010100000100000000010000110100010100000000010000100000001100000011010000110000001000000010000000110100000101000010000000000100000100000001010000010100000101000001000000110000001100000000000000000000010001000010010000100100001101000001010000100,
0000001000000010000010000000011000000000000010000000000000001010000010100000010000000010000001101000001010000110000000000000100000000010100010001000011000000010000001100000100000001000100001000000110010001100100001000000011010000010100000101000011010000100100011001000010000001000000001100000000010000100000001100000011000000000100000101000010010000110100011100000001010001000100001001000100000001010000001001000010010000100000001000000101010000100100010101000011010000010000011001000100010000100000000000000000010000110000001001000011000000000000000001000001000000010000000101000011000000100000010001000001010000010100001001000100010000100100001001000101000001010000000001000010010000100100001000000001000000100000000101000100000001000000000101000101000000000000000000000011010000110000010100000010010000010100000100000001010000100100001000000011000001010000001000000010000001000100000101000100010000010100001100000001000000000100001001000001000000000000000001000011000000100000000000000000010000010100010001000001010000010,
1000100000000000000001100000010000000010100000101000001010000010000000001000011010001000100001001000011010001000000000101000010000000010000000000000001010000110000011000000010010000110000001000000010000000010000001101000010000000110100000100000011000000000000001100000010000000010000001000000010000000100100001000000000010000010000001100000001010001000000001001000011000001000000001101000011000000100100010000000001010000010000001001000001000000100100000100000000000000110000000100000001000000110100001100000000000000110100000100000001000000010000000000000001000000110000000101000001010001010000001000000000010000100100001100000001010000100000010001000100010000010000000101000001010000010000000100000001000000000000000000000000000000000000000101000010000001000000000101000010010000100000001100000001000000100100001100000001010000100000000000000011000000110000010001000100010000100000010001000010000000000100001101000100000000000100001001000001010000100100000101000101000000110000001101000010010000100000001000000100010000100,
1000010000000110100001001000010010000100100000100000110000000100000000101000010010000010100001100000010000000000100000100000100000000110100001000000001000000010100001100000001010000100000000001000011000000010100001000000001000000100100010001000010010000100100001000000000010000110000001001000010000000100000001001000010000000010000010100000011010000100100001000000010000000010100000101000011010001000100001001000011010001010100000100000011000000000000001000000000010000010100001000000100010000010000000001000001000000100000000101000010000001000100000100000010010000100100001000000000010001000000000000000010000000100100000100000100000000010000000000000100000000000100010001000010000000100000000001000010000001000000010000000010000000000000010100000011000000000000000100000010000000100100000100000011000000010000001000000010000000100100001100000000000000110000000001000010000000000100011001000011000000100000001001000001000000100100001000000010010000100100001101000010000000000000001100000101010000110000001101000011010000100,
1000010000000010000001101000010010000100000000100000000010000010000000101000001010000100000001000000011010000100000000100000011000000110100000100000000010000100100010100000001000001000100001001000100000000000000000101000100000001010100000101000010000000100000000101000010010000010000000001000100010001110100000101000001000000000000001100000011000000010000001000000010000000000100000100000001010001010000001100000010010000010000010101000110000000110000000100000000000000100100001101000001010001010000000101000001000000100100001001000011000000100000010001000001000001000100000101000001000000110100001001000010010000010000001000000011000000010000001001000100000000010000001100000100000000100000010000000001000000100000001000000100000000100100001000000010010000010100010001000010010000100000001101000001010000100000000001000100010001000000000000000000000000000100001101000011010000110000000101000011010000110000010000000000000000010100001000000001010000100000000100000000010000100000000001000010000000100100001101000001010000110,
1000100000000000100001001000001000000100000000001000010010000010100001000000010010000110100010000000011000001000000001000000011010000110000010100000011010001110100000100000010000000000000000100000011000000100100001000000011010000010000000101000010010000110100010101000100000000110000000001000010000001000000001100000001000000010100001001000010010000100000010100000011000000110000000001000001010000100000000100000000010000010100000100000011000001010000000001000010010000010100000100000001010001010100010000000011010000010100000101000010000000100000001001000001000000000100001000000010000000100000000001000010000000000000000000000010010000100100001100000110000000100000000000000000000000000100001000000001010000010000000101000010000000000100001000000011010000010100001000000001000000110000001000000010000000010000000001000010000000110100001100000001000000010000010001000001000000110100001100000001010001000000000100000001010000110000010001000001000000100100001001000010000000100000001001000010000000010000001001000001000000010,
1000011000000010000000100000001010001010000010000000011000000110100001100000000010000100100010000000001000000010100001001000001000000010100010001000011010000100000000001000011010000110100001001000010000000000000000100000010010000010000000000000101000000000000000000000000000000000000010001000100010000100100000101000010000000000000000000000001010000100000000001000011010001000000001100000010000000000000001001000011000000110000010000000001010000010000000101000100000000010100001001000001000001000000001000000000010001000000001000000000010000100100001001000010010001000000001101000011010000100100001001000001000000110100001000000010000000010100000101000001010000010100001100000010000000110000001000000010010000110100001001000001010001000000001100000010000000010000000101000100010000110000001000000011000000000000010000000000000000000000001100000001000000010000010001000001000000100100000101000001000000100100001000000000010000100000000000000001010001000000001000000001000000000100001001000001000000110100001100000010000000000,
1000010000000010000000000000101010001000000010001000101010001010100001100000000000000000000000101000100010001000000000000000010000000010100001100000100000000110000000000000010000000000000000101000011000000000100000101000001000000010000010000000001000000100000001000000001010000100000010001000001000000000100010001000001000000000000000100000000000000110000001001000010000000010100001100000100010000110000000100000001000000010100000100000010000000010000001101000011010000010000001001000010000000000100001000000001000000000100000100000000000000010100001000000100010000010100001101000010010000100000000100000001000000010100001000000010000000010000000000000001000000010000000001000001000000110000000001000011000000100000000001000100000000110000000000000000010000010000001101000010010000010000000001000001010000100000000001000010010000110000001001000100000001000100000100000001010000100100000100000010010000100100001100000010010001000000001100000001010000100000000000000000000000100100001101000001010000100100001101000011010001000,
0000100010000100000000100000010000001000000001100000000000000100100000100000001010001000000001001000001000000000100000101000001000001000000001000000000010000100000000100000000000000000100001001000011000000110100010000000110000000000000001001000010000000000000000001000010000000100000000000000000000000000000000000000001010001010000001000000011010000110100010000000011010000110000000101000100010000100000011001000010000000100100001000000010010000100100000101000001010000010100001000000000000000010000000001000010000000010100000100000011000000100000000000000001010000010100010001000010000000000100001001000010010000100100000101000010010000010000000100000011010000100100000101000001000000000000001000000000000000010100001101000001000000100000001101000101000000110000001000000100000000100100001100000001010000010000011001000101010000010100001101000100010000010100001000000011000001000100001001000010000000010000001100000001010001000100001101000010000000010100001101000101010000010000000001000010010000010000000000000101000000000,
0000000010000010100010000000000010001000000000000000101000000110100000101000011010000010000001101000001000000010100001001000011000000010000000100000000000001000000000000000001010000100000000101000001010001010000000101000010000000100100000100000000010000010100001000000000000001000000000000000001000000110100010101000010000001100000001000000010000000000000010000000000010000010000001101000001010001000000001001000100010000010100001001000010000000010100001100000001010000110100001000000000010000010100010000000010000000110000010100000001000000010100000100000001010000110000000001000001010000110000001101000010000000100100001000000100000000010000001100000000010000010000000001000011000000010100000100000010000000100000000100000101000000000100000101000101010000010000011000000010000000110000001101000011010000110000000100000100010000010100001101000010000001010000000001000011000000100000000000000001010000010000000101000001000001000100000101000010000000010000001001000010000000100000001100000001000000010100001101000011010000100,
1000010000000010000011001000001000000010000001001000111000000010100000101000010010000010100000101000110000000100000000101000100000000010000001101000011010000100000000000000001000000000000000100000010000000110000001001000001000000110000010000000011000000010000001101000001000001010000001101000001000001000100001000000011010001000100000100000010010000100000001000000101000000110000000001000101000000100100000100000000010000100000000101000011010001000000000100000001010000010100001001000101010000110100001101000001000000110000001000000000000000100100010001000001010001010000000001000001000000100100001001000010000000110000001001000101000000100000000100000001000000000000001001000101000000110100001101000001000000010000001100000010010000010000000100000010000000110000001001000001010000100100001100000010000000010100001000000000010001000000001000000001000000100000010100000110000000110000001101000001000000010000000100000010010000100000010000000011010000110100001001000010010000010000000100000011000001010000001100000000000000100,
0000000000000100000000000000000000000100000001101000100000001000000000100000100010000010000000100000001000000110100001101000100010000010000000000000010010000100100000100000001000001000100001100000000010001010100001100000100000000010100010001000001010000100000000100000010000000100100001000000010010001000000001100000001000000010000001001000011000000000000000101000001010000110000001001000001000000010000001000000000010000010000001000000001010000100100001000000010010000100000001100000011000000000000001101000011000000000000001101000010010001000000000101000001000000100100000101000001000000110000000000000010010000100100000100000001010000110000000001000011010001000000000001000010000000010000000100000001000000010000010001000100000000000100000101000001010001000100001000000001000000100000001001000001000000100000000100000010000000100000000001000001010000010000001100000000000000010000000000000010010000010000001101000100010000100000010000000000000000000000000001000010000000010000001000000010000000000000000101000010000000110,
1000001010000110100000100000110010000100100000101000001010000110100001000000011010000100000000000000010000000100000000101000010000000000000001000000000000000000100000101000011010001000000000000000000000000100000000001000011010000110100000100000001010000010000001100000001010000100000001001000011010000100000001000000011000000110000000001000101000000000000001100000011010000110000000101000011000000000000001100000001000001000100000100000010010000100100010000000000010000110000000001000001000000100000001000000100000000100100001000000001000000110000000000000001000000010000000001000010010001000000000001000011010000110100001000000001000001000000000100000001000000000100000100000000000001000000001001000010000000110100001100000000010000110100010001000100010000010100001101000001010000010000001100000100000000100100000101000100000000100000001000000001010000110000000100000101000001010100001100000000000000000000000101000010010000010100001100000000000000000100001000000001000001000100001101000001000000100000001101000010000000110,
0000000010000110000010100000001000000010100001101000101010000010100000101000001010000100100000101000100010000100000001001000011000000000000000100000011010000100000001101000101000000000000001000000001000000000000010000000001000000110000000101000010010000100000000000000101000000100000001001000001010001000100001001000011000000010000011000000011010000100000010001000001000000100100001001000001000000000000001101000001000000110000000000000001010000010100000101000100010000010000001100000001010001000000001000000000010000110000000001000001010000100100001000000000010000110000001100000000000000100000001100000010000001000100010000000000000001000100001001000001010001000000010000000100010000010100000100000100000000110000000000000011010000110100000100000010010000110100000101000010000000110000001101000100010000100000000101000011000000010100001101000001000000110100001001000001000000010000000101000001000000000100000101000101000000010000001001000001010000100000010001000001010000110000000100000001000000100000000000000010010000010,
1000100010000010000001001000011010001000000000100000010010000010100000100000011000000010000000001000011010000010000000101000010010000100000001101000011010001000100001000000001000000100000000000000011010000010100000100000010000000010000001000000001010000010000000000000010010000110100001000000001000001000000001001000001000000110100001000000010000000010000000001000001010001000000000001000001010000010100000101000010000000010000001100000010010000100100000101000001010001000000000101000011000000110100010000000000010000010100001101000001000000000100010001000100010000010100000101000101010000010100010000000000000001010000001001000011010000110100000101000101010000110000010001000101000000010000010100000000000000000100010000000000000000000100001100000011010000010000001001000100000000100000010000000001000000110000001001000100000000010000001100000001010000100100001100000011010000010100001000000000000000000000000100000000010000100000000000000001010000100100001000000001000000000100001000000000010000010000010101000001010001000,
0000100000000100100001100000011000000000100001001000001000000110100001100000100000000110100001000000000010000010000000100000001000000000100010001000001000000000100001000000000010001010000010101000010000000100100011000000000000000000000001001000100000000010000001100000001010001000100010100000011010000100000001100000010010000010000010000000000000000010000000001000010010000110000001101000011000000110100000100000001010000110000001101000110010000010000000100000100000000000100000100000001010000100000000100000001000001100000000100000001010000100000010100000101010001000000010000000010000000100000000101000011010000010000010001000010010001010000000101000100000000010000000000000001000000100000000000000001000000000000000100000001010000110100001000000011000000110000001100000100000000010000010001000001010000100000000101000010000000100100010000000010010000100100000100000001010000110100001101000001000001000000000001000010010001010100001100000011000000110000000001000010000000010000001001000010000000110100001100000010010000110,
0000000000001000100001000000001010000010100001100000100010000110000000101000010000000010100010101000001010000010000001000000000010000010000010001000011010000110000000000000011010000110000001000000010000000100100000100000001000000000000000100000010010001000100000100000010000000010000001000000010010000110000001001000010010000100100000101000100010000110100010000000010010001100000000001000001000000100000000001000001000000000100010000000100000001100000001000000000000000000000000000000010000001110100001101000001000000100100010001000100010000010100000100000011000000110100000100000001010000100100001100000011000000110100000100000000010000100100011000000100000001100100001001000100000000010100001000000001000000100000010100000010000001010000001100000000000000000100000101000001010001000100000101000100010000100100000101000001010000100100000100000000000001010100010001000001000000010000000101000001010001000000001000000011010000100000000101000100010000110100000100000000000001000000001000000010010000110100010000000000000000100,
1000011000001000000001101000001010000010100001001000001010000010100000100000011010001100000001000000010000000000100010000000000000000000000010000000000010000110000001000000001010000110000000000000011000000000000001001000001010000110100001100000100000000010000000001000010010000010100010000000001000001010100010100000001000000000000000001000101010001010100001001000011000001010000000001000001000000000000010000000001010000010000000001000011000000010000001000000100010001010000001001000101000000110000011000000001010000110100010100000001000000100100000101000011000000100000000100000001000000010000010000000000000000000100000100000100000000000000010000000001000000000000000101000100010001010100000100000000000000100100001100000011010000010000001000000001000000100000000001000001010001010000001001000001000000010100001101000010010001000100010000000001010000100000000000000000010000100000010101000010000000110100001000000010010000100000001000000001010000010000000001000010000000000100001001000010010000010100000100000010000000000,
1000100000000010000000001000011000000000100000100000001010000010000001100000001000000000000000000000010000000010000000000000000000000000100010001000011000000100100001100000000010000010000001000000000000000010000000101000010010000010000011000000000000000000100011000000101000000000000000101000011000000010000001100000001010000010000000100000011000000010000001100000100000000000100010101000111000000010000001101000011000000100000000000000001010001010000000000000011000000100100001000000010000000010000010000000011010000100100001000000000000000010000000000000011000000000100001000000100010010010100000101000010000000010100010000000100010000010000000100000000000001010100000101000110000000010100010001000001000000110000001001000001010000010000001101000001000000000100000100000010010000010100010101000010010001000100000101000010000000000100000101000001000000000000001100000100010000010100000101000011010000100100010000000100000000100000000000000011010001000000010101000001000000000000010001000011000000010100010101000001010000100,
0000010010000100100010100000010010000010100001101000001000000110000001101000100000000100000000100000001000000000100010100000100000000000100010000000100000000100000001100000001000001010100000100000000000000010100001001000010000000000000001101000101000000010000010100000001010000110000000100000110000000000000001000000011010000100000001100000001010000100000000000000011000000000100001101000010000000010000001001000010000000010100010100000000000000000000010100000001010001010100000101000010010000100000000101000010010001000100010000000001010000100100001101000011000000100100010100000000010001100000000000000001000000110100000100000100010000010000001100000001010000010100000101000010000000100000001001000001010001000000000000001000000000010000001000000001010000100000000001000011000000010000000000000000010000010000000000000011000000100000011000000010010000010100010100000000010000100000000000000001000000100000010100000000010001010100010100000100010000100100000100000011000000100000001000000010000000100000011000000000010001000,
0000001000000010000000000000000000000100000000101000001010001010000011000000001010000100000001001000101000000100100000100000000010000010100011000000000010000110100001001000011010001000000001100000011010001000100001000000100000010010000010001000111010000010000000001000101000000100000010101000010000000100100001001000010010000110000001100000010000001100100010100000000010000010000000001000111000000110000011101001000010000100000000101000010000001000000010000000110010000010000000100000011000000010100010000000011010000100000001000000011000000100000001000000010010000100000001100000001000000100100001101000001010001010100000100000000010000010100001100000000000000110100000101000001010000100100001000000010000000110100000100000010010000100100000100000010000001000000000101000001000000100000000100000001000000100000001101000011010000110000000101000011000000000100001100000100010000010100000100000010000000110000000001000001010000110000010000000000000001000000000001000010000000000100010001000001010000110100000100000010010001000,
0000010000000000100001101000010000000000100010000000011000000110100000100000001010000100000010100000001000000010000000100000010010000110100010100000001000000010000000000000010000000010100000100000011000001000100001100000010010000010000001001000011010001000100001101000011000000000000000000000000010000100000000001000010000000100100001101000001010001010100001001000010010000100100010001000010010000010100001100000000000000110100000101000010010001000100001001000011010000010000010001000010000000010100001101000001010000010100010100000010000000000100000101000010000000000100010001000100010000010100000101000011010000100000000001000011010000010000000101000100000000000000000001000001010001000000000000000010010000110100001001000100000000110000000100000011010000100000000101000001010000110100001000000001010000010100001000000000000000010000000000000000010000110000001001000010000000000000001001000011010000100100000100000010010000100000000100000100010000110000010000000010010000010000000100000001000000010000000001000011000000010,
1000100000000010000000101000010010000010000000000000011000000110000000101000001000000100100001001000100000000000000001101000001000000010100001000000100010000010000000000000010010000010000010001000010000000010000010000000000000000110000000000000011000000000100000100000011000000000000001001000010010000010000000101000001000000000100010100000010000000000100010001000100010000100100001101000011010000110000001000000100000000110000000000000100010000100000000101000010000000010000000101000101010000010000000000000000010001010000010000000010000000010100000100000010000000110100000101000001010000110000010001000001010000010000001101000010000000000100000100000001000000010100001001000011000000010000010001000011000000100000001100000000000000100000000001000001000000000000000001000001000000010000010100000011000000100000000101000011000000110000000101000001010001000000000001000010010000100000001101000110010000100000001100000000000000100100010001000010000000000000000000000001000000000000010001000010000000010100001000000010010000010,
1000001000000000000000000000010010000010000001100000011000000010100000101000100010000110000010101000100000000000000000001000010010000010000010000000010010000100100001001000001000001000000001101000010010000100000011101000001000000010000000001000010010000010100000100000000000000000000001000000000000001010100001000000011010001000000000000000001010000100100000100000010000001000100001001000001010001110000000101000001000000100000000001000100010000010100001001000001010000100000001000000011000000100000001101000001000001100100001100000011010000010100001001000001000000100000001001000011000000010000001000000010000000010000001100000011000000100100001100000011000000100100001100000000000000100100000100000000000000000000010000000001000000010100001100000010000000010000001100000100000000010100001100000011000000000000001000000000000000000000000000000010000000000000000101000011000000010000001000000010010000110100001100000011010001010100001001000100000000110000001001000011010000010100000100000000000000100000010000000011010000110,
0000000010000110000000000000011010001000000000000000101000000010100010000000010010001000000000100000001000000110000001001000010010001000000000100000101000000000000010000000011010000100000000100000101010000100100010000000011000000010000000001000001010000110000000100000011000001010000001001000100010001000100010000000001000000010100001000000010010001010100000100000001000000010100001100000001010001000100011101000010000000000000000001000010010001010100011101000010000000110000000100000000000000010000000100000010010000110000000000000000000000110000000000000011010000010000000100000000010000010000000101000100000000100100001000000011010000100100001000000000000000100100000100000001010001100000001000000011000001000100001100000000000000110000000001000101010000110000000101000001010000010100001001000001000001010000010000000011010000010000010000000111000000100100001100000001010000010000000100000000000001010100001100000010010000100000001000000000000000000000000000000000000000010000001101000101000001000000001001000011000000010,
0000011000000000000001001000100010000010100000100000000010001000000000000000000000000000100001001000011010000010000011100000000010000110100011000000001010000100100001001000100000000000000001001000010000000100100000101000010000000110000000001000001010000100000000101000010000000000000000001000100000000110000000100000101010001100000000100000011000000100000001100000111000000100000001001000001010000010000000000000001000000010000001100000010000000000000001100000010010000100100000101000101010001000000001001000001000000100000000001000001000000100100001001000010010000010100000100000000000000100000001100000000000000010000001001000010000000010100010100000100000000000000000101000010010000100000001101000001000001100000000000000010010000110100011000000110010000010000001001000100010000010000000001000001000000010000000100000010010000010000001001000010010000010000010000000011010000110000001000000010000000000000001000000100000000010000000000000010010000110100000100000000010000100000010100000100010000010000000001000100010000100,
1000001000000010000001100000001010001000000001000000011010000010100001100000111000000000100000100000011000000010100010100000001010000110000000000000011010000110000001000000001000000000000000101000010010001010000000000000001000000010000001000000001010001000000000000000001000000110100000100000000000000110000000000000001000000110000000100000001010000110100000100000001000000110000001000000010000000100000001101000010000000110100001100000100010000100000001100000000000000010000000000000001000000110100010000000011000001000000010000000100010000010000010100000101010000010100000101000011010000010000010000000000010000100100001000000000010001000100010000000010010000010100001100000001010000010100010100000000010000110100010001000010010000100000000101000011000000100000000001000011000000100100001101000100000001010000011001000100000000010000000100000000010001000000000101000011000001000000001001000001010001000000000101000010000000010100000101000010000000100100000101000100000000110000010000000011010001000100000101000001000001000,
0000001000000100000000001000001010000100100010100000000010000110100001001000011010000010000001001000011010001000100000101000011000000100100001101000010000000100100010001000011010000110100001100000000000000100100010001000010010000100100001001000010000000000000000101000001000000100100000101000010010000110000000000000001000000000000000001000010000000000000000101000011000000110000000001000100010000010100001000000010000000100000000000000100010001000000001001000100000000010000001000000001000000000100001000000010000000000100001001000001010000110000000000000100000000000000001000000000000000000000010101000010000000010000000100000010010000100100000100000010000000100000001101000010000001000000000001000010010000010100000100000010010000100100010101000001000001000000001000000001000000100000010101000011000000110100000101000100010000100100001001000001000000000100010000000101010001010100001000000001000000000100000101000001010000010100001000000000000000000100000101000001010000110100001000000001010001010000001000000000000000000,
0000000010000010000000101000001010000100000001001000010010000110100010000000010000000100100011001000001010000010100000100000000000000000100001000000000010000010000001001000101000000010000000101000001000000000000000000000011010000100000000001000011000001000100001000000010010000010100001000000001000000000000001100000010000000110100001000000000000000000000001000000010000000100000001100000010010000100000000001000010010001000000000100000000000001000000000100000011000000110100000101000100010000010000000101000001000000000000010000000010010000110000010001000001010000110100001100000010000000110100010100000100010001000000010000000101000001000000010100000001000000000000000100000010010000100000000101000010000000100100001100000011000000000000000101000011000000000000010001000001010000010000000000000010010000010100001001000011010001000000001001000010000000100000000101000010000000000000010000000010010000110100000101000001000000100000000001000100010000010000000001000011010001000100001000000011000000000000001100000000000000000,
